unsigned char sine_model_quantized_tflite[] = {
  0x1c, 0x00, 0x00, 0x00, 0x54, 0x46, 0x4c, 0x33, 0x00, 0x00, 0x12, 0x00,
  0x1c, 0x00, 0x04, 0x00, 0x08, 0x00, 0x0c, 0x00, 0x10, 0x00, 0x14, 0x00,
  0x00, 0x00, 0x18, 0x00, 0x12, 0x00, 0x00, 0x00, 0x03, 0x00, 0x00, 0x00,
  0x5c, 0x0a, 0x00, 0x00, 0x04, 0x06, 0x00, 0x00, 0xec, 0x05, 0x00, 0x00,
  0x34, 0x00, 0x00, 0x00, 0x04, 0x00, 0x00, 0x00, 0x01, 0x00, 0x00, 0x00,
  0x04, 0x00, 0x00, 0x00, 0x4c, 0xf6, 0xff, 0xff, 0x08, 0x00, 0x00, 0x00,
  0x0b, 0x00, 0x00, 0x00, 0x13, 0x00, 0x00, 0x00, 0x6d, 0x69, 0x6e, 0x5f,
  0x72, 0x75, 0x6e, 0x74, 0x69, 0x6d, 0x65, 0x5f, 0x76, 0x65, 0x72, 0x73,
  0x69, 0x6f, 0x6e, 0x00, 0x0c, 0x00, 0x00, 0x00, 0xac, 0x05, 0x00, 0x00,
  0x98, 0x05, 0x00, 0x00, 0x88, 0x05, 0x00, 0x00, 0x7c, 0x05, 0x00, 0x00,
  0x74, 0x05, 0x00, 0x00, 0x6c, 0x05, 0x00, 0x00, 0x1c, 0x05, 0x00, 0x00,
  0xcc, 0x04, 0x00, 0x00, 0xbc, 0x00, 0x00, 0x00, 0x6c, 0x00, 0x00, 0x00,
  0x1c, 0x00, 0x00, 0x00, 0x04, 0x00, 0x00, 0x00, 0x9a, 0xfa, 0xff, 0xff,
  0x04, 0x00, 0x00, 0x00, 0x05, 0x00, 0x00, 0x00, 0x31, 0x2e, 0x35, 0x2e,
  0x30, 0x00, 0x00, 0x00, 0xae, 0xfa, 0xff, 0xff, 0x04, 0x00, 0x00, 0x00,
  0x40, 0x00, 0x00, 0x00, 0xd7, 0xbf, 0xa3, 0x3d, 0xc3, 0x71, 0xac, 0xbe,
  0x3d, 0x61, 0xa8, 0x3e, 0x7d, 0x48, 0xbe, 0xbf, 0x27, 0x83, 0xec, 0xbe,
  0xa8, 0xcf, 0xd5, 0xbe, 0x65, 0x62, 0x2e, 0x40, 0x23, 0x1d, 0x00, 0x40,
  0x56, 0x84, 0x56, 0xbe, 0xac, 0xcf, 0x42, 0x3e, 0x8d, 0x83, 0x8d, 0xbf,
  0xb0, 0x7d, 0x48, 0x3e, 0xf8, 0xaf, 0x0f, 0x3f, 0x00, 0x82, 0x7b, 0x3d,
  0x30, 0x0e, 0xf3, 0x38, 0x54, 0x23, 0x05, 0x3f, 0xfa, 0xfa, 0xff, 0xff,
  0x04, 0x00, 0x00, 0x00, 0x40, 0x00, 0x00, 0x00, 0xca, 0x59, 0x1c, 0x3e,
  0x4f, 0x9f, 0x4a, 0x3e, 0x09, 0xae, 0xa7, 0xbe, 0xd1, 0xcd, 0x26, 0x3f,
  0x57, 0xaf, 0x8c, 0x3e, 0xaa, 0x5f, 0x67, 0x3e, 0xeb, 0x72, 0x2d, 0xbf,
  0x12, 0x77, 0x1e, 0x3f, 0x3c, 0x76, 0x2d, 0x3e, 0x91, 0x68, 0xdc, 0xbe,
  0x59, 0x1e, 0x61, 0x3e, 0x00, 0x00, 0x00, 0x00, 0x00, 0x00, 0x00, 0x00,
  0x00, 0x00, 0x00, 0x00, 0x74, 0x8a, 0x93, 0xbd, 0x00, 0x00, 0x00, 0x00,
  0x46, 0xfb, 0xff, 0xff, 0x04, 0x00, 0x00, 0x00, 0x00, 0x04, 0x00, 0x00,
  0x6c, 0x5e, 0x20, 0xbe, 0x7a, 0x29, 0x35, 0x3e, 0x61, 0x24, 0x7f, 0xbe,
  0xd8, 0x20, 0x21, 0x3b, 0x66, 0xa6, 0x3f, 0x3e, 0xdc, 0xbc, 0xf3, 0x3d,
  0x32, 0x12, 0x4c, 0x3e, 0x60, 0xfa, 0xa6, 0x3c, 0xf7, 0x69, 0x39, 0xbe,
  0x4e, 0x07, 0x19, 0xbe, 0xf0, 0xe5, 0x05, 0x3d, 0x94, 0x12, 0xba, 0xbe,
  0xf7, 0xb4, 0xce, 0xbe, 0x1c, 0x78, 0xa1, 0xbd, 0x81, 0x24, 0x68, 0xbe,
  0xe5, 0x24, 0x73, 0xbe, 0x32, 0x48, 0x1b, 0x3e, 0x09, 0xf8, 0x4a, 0x3e,
  0x9a, 0x0a, 0xba, 0x3e, 0x05, 0x72, 0x93, 0x3e, 0x40, 0xe2, 0xb3, 0xbd,
  0x50, 0xee, 0xbc, 0xbe, 0x50, 0x65, 0x91, 0xbc, 0x1c, 0x5c, 0x91, 0xbe,
  0xe0, 0xd2, 0x1f, 0x3e, 0x03, 0xd5, 0xf4, 0xbb, 0x36, 0x4e, 0x3e, 0x3e,
  0x60, 0xb8, 0x48, 0x3c, 0xa0, 0xae, 0xb4, 0xbd, 0x51, 0x61, 0x6d, 0xbe,
  0xbe, 0x50, 0x3b, 0xbe, 0x37, 0xea, 0x00, 0xbf, 0x93, 0xb7, 0x8f, 0x3e,
  0x98, 0xc4, 0x31, 0xbc, 0x41, 0xcb, 0xcd, 0x3e, 0xf8, 0xc4, 0x2f, 0xbe,
  0xf3, 0x6e, 0xa1, 0x3e, 0xd4, 0x4e, 0xcb, 0xbe, 0x8a, 0x69, 0x37, 0xbe,
  0x4e, 0x4a, 0x48, 0x3e, 0x6c, 0xd1, 0xca, 0x3e, 0x1e, 0x47, 0xe2, 0xbd,
  0xb6, 0x29, 0x2c, 0xbe, 0x8a, 0x99, 0xb4, 0xbe, 0x98, 0xa5, 0xf1, 0xbd,
  0x3a, 0xea, 0xf8, 0x3d, 0xca, 0x03, 0x64, 0xbe, 0x5e, 0x7e, 0x03, 0x3f,
  0x2e, 0x9d, 0x27, 0x3e, 0x96, 0x4a, 0xec, 0xbe, 0xc5, 0xc2, 0x05, 0xbf,
  0xdb, 0x7d, 0x32, 0xbd, 0x6e, 0xfa, 0x91, 0xbe, 0xa8, 0x48, 0x65, 0xbe,
  0xa0, 0xd6, 0x43, 0xbc, 0x24, 0xc7, 0xd9, 0xbd, 0xe8, 0x92, 0xe6, 0xbe,
  0x33, 0xac, 0xfe, 0x3e, 0x61, 0xb5, 0x89, 0x3e, 0xdc, 0x36, 0x1c, 0xbe,
  0xa7, 0x15, 0xd2, 0x3e, 0xd6, 0x4f, 0x89, 0xbe, 0x72, 0x91, 0x8d, 0xbe,
  0xfa, 0x8d, 0x17, 0xbf, 0x08, 0xd1, 0xbc, 0xbe, 0xd3, 0xbf, 0xb0, 0x3e,
  0xe7, 0x23, 0x82, 0xbe, 0x9f, 0x02, 0x65, 0xbe, 0x9e, 0x13, 0x43, 0x3e,
  0x19, 0x74, 0x8e, 0x3e, 0x47, 0xe5, 0x78, 0xbe, 0xcb, 0xec, 0xa6, 0x3e,
  0xe5, 0xd1, 0x6f, 0xbd, 0x00, 0xa7, 0xda, 0x3b, 0x0c, 0x73, 0xbd, 0xbe,
  0xeb, 0xf6, 0xd1, 0x3e, 0x82, 0x17, 0x07, 0xbe, 0x6e, 0x37, 0xbb, 0x3d,
  0x0a, 0xef, 0x10, 0x3e, 0x9c, 0x2f, 0x17, 0x3e, 0xc0, 0x67, 0x35, 0x3c,
  0xfa, 0x3d, 0x35, 0x3d, 0x09, 0xee, 0x12, 0x3e, 0x67, 0xd6, 0x9c, 0xbe,
  0x8a, 0x24, 0x56, 0x3e, 0x3f, 0x6c, 0xbc, 0x3e, 0x64, 0x5b, 0xba, 0xbe,
  0xf4, 0x7a, 0x97, 0xbe, 0xd2, 0xf6, 0x3e, 0xbe, 0x6e, 0x70, 0xae, 0x3d,
  0x1c, 0x8c, 0x0f, 0xbe, 0x7d, 0x59, 0xd7, 0x3e, 0xe6, 0xc1, 0x41, 0x3e,
  0xa4, 0xf2, 0xb4, 0x3d, 0xef, 0xf2, 0xa3, 0xbe, 0x8f, 0xac, 0x01, 0x3e,
  0x34, 0xa7, 0x6d, 0xbe, 0x9f, 0x91, 0x2d, 0xbe, 0x2b, 0xfc, 0x39, 0x3d,
  0x3b, 0xaf, 0x2c, 0xbe, 0x49, 0x34, 0x99, 0x3e, 0x44, 0x41, 0xb5, 0x3d,
  0xdc, 0x9e, 0x5e, 0xbe, 0x31, 0xff, 0xd9, 0xbe, 0x27, 0x8e, 0x30, 0x3e,
  0xd3, 0x9b, 0x00, 0x3e, 0xdc, 0x73, 0x0c, 0xbe, 0xe1, 0x74, 0xd8, 0x3e,
  0xb0, 0xa7, 0x2d, 0xbd, 0x5f, 0xfa, 0xc7, 0x3e, 0xab, 0xa6, 0x9b, 0x3e,
  0xe2, 0x69, 0x14, 0x3f, 0xae, 0x96, 0x27, 0x3e, 0x8b, 0x23, 0xbd, 0x3e,
  0xa6, 0x8c, 0x46, 0x3d, 0xdc, 0xac, 0x24, 0xbf, 0xfd, 0x2b, 0xcc, 0x3e,
  0x0d, 0xfa, 0xbd, 0xbe, 0x71, 0x8e, 0x81, 0x3e, 0xfa, 0x6c, 0x04, 0x3e,
  0x74, 0x5b, 0x3c, 0xbf, 0xb8, 0xf6, 0xce, 0x3e, 0xef, 0x88, 0x88, 0xbe,
  0xa9, 0x25, 0xb3, 0x3e, 0xe7, 0xf7, 0xb3, 0x3e, 0x55, 0xc6, 0x89, 0xbf,
  0xf0, 0xa9, 0xaa, 0xbe, 0xed, 0xfa, 0xee, 0xbe, 0x1c, 0xbc, 0x97, 0x3d,
  0x9b, 0x10, 0xca, 0x3e, 0x23, 0x45, 0x42, 0x3d, 0x81, 0xfd, 0x35, 0x3e,
  0x24, 0x01, 0x9f, 0xbd, 0x30, 0x57, 0xb1, 0xbe, 0x30, 0x6e, 0x71, 0xbd,
  0x6f, 0xd8, 0x93, 0x3e, 0x38, 0xd8, 0xaa, 0xbe, 0x55, 0x97, 0x36, 0xbe,
  0xd2, 0x22, 0xc8, 0xbe, 0x6a, 0x81, 0x34, 0x3e, 0xe2, 0xa6, 0xb2, 0xbe,
  0x91, 0x34, 0x89, 0xbd, 0x51, 0xa7, 0xc2, 0xbe, 0x30, 0xd2, 0xf7, 0xbc,
  0x84, 0x54, 0x98, 0xbe, 0x34, 0x7c, 0xa8, 0x3d, 0x92, 0x63, 0x18, 0x3e,
  0xa4, 0x10, 0x89, 0x3e, 0xc0, 0x3c, 0x9d, 0xbe, 0x04, 0xbf, 0xca, 0x3d,
  0x53, 0xa3, 0x54, 0xbe, 0x90, 0x33, 0xe3, 0x3c, 0xff, 0x2b, 0x85, 0x3e,
  0x40, 0xf1, 0x4a, 0x3e, 0x29, 0x66, 0xba, 0xbe, 0x88, 0xd0, 0x06, 0x3d,
  0x16, 0x10, 0x84, 0xbe, 0x2f, 0x22, 0xce, 0x3e, 0x8b, 0x97, 0x7c, 0xbe,
  0x61, 0x8b, 0x37, 0xbe, 0xe3, 0xb8, 0x99, 0x3e, 0x48, 0x80, 0xb5, 0xbd,
  0xdd, 0x6f, 0x8a, 0xbf, 0xf0, 0xe5, 0xaf, 0xbe, 0xad, 0x98, 0xb3, 0x3e,
  0x0e, 0x33, 0x0e, 0x3e, 0xf8, 0x3b, 0x81, 0xbe, 0x92, 0x78, 0xda, 0xbe,
  0xdb, 0x10, 0x9b, 0x3e, 0x98, 0x48, 0x21, 0xbe, 0x36, 0x3b, 0x20, 0xbe,
  0x70, 0xd6, 0x0f, 0xbd, 0xe0, 0xe6, 0x57, 0xbe, 0xc2, 0x93, 0x5f, 0x3e,
  0x53, 0x33, 0xae, 0x3e, 0x53, 0x84, 0x19, 0xbf, 0x63, 0x92, 0xa4, 0x3e,
  0x70, 0x0b, 0x9b, 0xbc, 0x50, 0x46, 0x4d, 0xbe, 0x46, 0x52, 0xa9, 0xbe,
  0x90, 0x3a, 0x1c, 0xbd, 0xd6, 0x53, 0x20, 0x3e, 0xdc, 0xae, 0xe6, 0x3d,
  0xf1, 0x3e, 0xd0, 0x3e, 0xa0, 0xfb, 0xaa, 0xbd, 0xdc, 0xc8, 0xbb, 0xbd,
  0x81, 0x45, 0xd3, 0x3e, 0xae, 0x16, 0x36, 0x3e, 0x42, 0xa9, 0x0f, 0x3e,
  0xf5, 0xbb, 0xa7, 0x3e, 0x52, 0x4d, 0x77, 0x3e, 0xab, 0x53, 0xa1, 0xbe,
  0x0a, 0x04, 0x5d, 0x3e, 0x56, 0x0e, 0x90, 0xbe, 0x60, 0xf9, 0xbf, 0xbd,
  0x35, 0x3a, 0xc6, 0xbe, 0xe8, 0x18, 0x0b, 0xbe, 0x00, 0x38, 0xf1, 0xbd,
  0xe4, 0xf0, 0x83, 0x3d, 0xf2, 0x78, 0xb8, 0xbe, 0x18, 0x80, 0x7a, 0x3d,
  0x60, 0xcd, 0x97, 0xbd, 0x8c, 0x59, 0x10, 0xbe, 0xd0, 0xfc, 0xfa, 0xbd,
  0x8c, 0x5f, 0xf0, 0xbd, 0xaa, 0x20, 0x1d, 0x3e, 0x62, 0x3f, 0x40, 0xbe,
  0x65, 0x07, 0xa5, 0x3e, 0xa2, 0x35, 0x37, 0xbe, 0xfc, 0x08, 0x2d, 0xbe,
  0x40, 0xd1, 0x5d, 0x3c, 0x0c, 0x50, 0x1a, 0xbe, 0xd7, 0xa3, 0x7b, 0xbe,
  0x43, 0xcc, 0xb3, 0x3e, 0x00, 0xeb, 0x20, 0x3b, 0x6e, 0x68, 0xd8, 0xbe,
  0xfc, 0x28, 0xd0, 0xbd, 0x88, 0xe5, 0x01, 0xbe, 0x38, 0xf1, 0x43, 0xbe,
  0xfc, 0xb8, 0xc6, 0xbd, 0xad, 0x4e, 0xc0, 0xbe, 0xe8, 0x29, 0x04, 0xbe,
  0xe8, 0x4b, 0x62, 0xbd, 0x7e, 0x14, 0xc6, 0xbe, 0x09, 0xcb, 0x8f, 0x3e,
  0xf1, 0xe8, 0x7e, 0x3d, 0x50, 0x08, 0x8e, 0x3c, 0xff, 0xaf, 0xec, 0xbb,
  0xc0, 0x6e, 0x1f, 0xbe, 0x30, 0x4d, 0x05, 0xbe, 0xd8, 0xf6, 0xb0, 0xbe,
  0xbf, 0x0f, 0x9f, 0x3e, 0xaf, 0x6a, 0xcc, 0x3e, 0xa1, 0x52, 0x80, 0xbe,
  0xb7, 0x9c, 0xb7, 0x3e, 0xda, 0xbc, 0x26, 0x3e, 0x98, 0xe4, 0x70, 0xbd,
  0x15, 0x3e, 0xad, 0x3e, 0x0a, 0x2f, 0x0f, 0x3e, 0xa8, 0x15, 0x98, 0xbe,
  0xe9, 0x24, 0x75, 0xbe, 0x44, 0xa9, 0xba, 0xbe, 0xe0, 0x27, 0x6d, 0xbc,
  0x1d, 0x62, 0xb7, 0x3e, 0x70, 0xa1, 0x2c, 0xbe, 0x2c, 0x34, 0xa7, 0xbe,
  0x4f, 0xc9, 0xa0, 0xbe, 0x30, 0xf3, 0x36, 0xbd, 0xe1, 0x2e, 0xb7, 0x3e,
  0x9e, 0xe1, 0x2e, 0xbe, 0xaa, 0x0a, 0x10, 0x3e, 0xaa, 0xfe, 0x86, 0xbe,
  0xe4, 0xec, 0xcb, 0x3d, 0x3d, 0x23, 0xb8, 0xbe, 0x90, 0x33, 0xef, 0x3c,
  0xfd, 0xb9, 0x3f, 0xbe, 0x52, 0xff, 0xff, 0xff, 0x04, 0x00, 0x00, 0x00,
  0x40, 0x00, 0x00, 0x00, 0x00, 0x00, 0x00, 0x00, 0xac, 0x43, 0x02, 0x3f,
  0x42, 0xb2, 0x02, 0xbb, 0xee, 0x6d, 0x7d, 0xbe, 0x00, 0x00, 0x00, 0x00,
  0x00, 0x00, 0x00, 0x00, 0x00, 0x00, 0x00, 0x00, 0x00, 0x00, 0x00, 0x00,
  0xb9, 0x25, 0xde, 0xbe, 0x4a, 0x38, 0x85, 0xbc, 0x00, 0x00, 0x00, 0x00,
  0x00, 0x00, 0x00, 0x00, 0x00, 0x00, 0x00, 0x00, 0xf4, 0x77, 0xa8, 0xbe,
  0x00, 0x00, 0x00, 0x00, 0x0f, 0x66, 0x6e, 0xbf, 0x9e, 0xff, 0xff, 0xff,
  0x04, 0x00, 0x00, 0x00, 0x40, 0x00, 0x00, 0x00, 0xbc, 0x9f, 0x48, 0xbe,
  0x65, 0x05, 0xb7, 0x3e, 0xca, 0xe7, 0x85, 0x3e, 0x1e, 0xa9, 0x67, 0x3e,
  0xfa, 0x15, 0xcf, 0xbe, 0xb5, 0x52, 0x14, 0xbf, 0x44, 0xc5, 0xa0, 0xbe,
  0x52, 0x69, 0x53, 0xbe, 0x84, 0x72, 0x2a, 0x3e, 0x1a, 0xe2, 0x05, 0x3d,
  0x00, 0x91, 0x2d, 0xbc, 0xdf, 0x10, 0xaa, 0xbe, 0x6d, 0x7f, 0xcf, 0xbe,
  0xfc, 0xfd, 0x13, 0x3e, 0x1e, 0xdb, 0x91, 0xbe, 0x31, 0x18, 0xf6, 0x3e,
  0x8c, 0xfb, 0xff, 0xff, 0x90, 0xfb, 0xff, 0xff, 0x94, 0xfb, 0xff, 0xff,
  0x04, 0x00, 0x06, 0x00, 0x04, 0x00, 0x00, 0x00, 0x00, 0x00, 0x06, 0x00,
  0x08, 0x00, 0x04, 0x00, 0x06, 0x00, 0x00, 0x00, 0x04, 0x00, 0x00, 0x00,
  0x04, 0x00, 0x00, 0x00, 0x4f, 0x0d, 0xa7, 0xbe, 0xb8, 0xfb, 0xff, 0xff,
  0x0f, 0x00, 0x00, 0x00, 0x54, 0x4f, 0x43, 0x4f, 0x20, 0x43, 0x6f, 0x6e,
  0x76, 0x65, 0x72, 0x74, 0x65, 0x64, 0x2e, 0x00, 0x01, 0x00, 0x00, 0x00,
  0x10, 0x00, 0x00, 0x00, 0x0c, 0x00, 0x14, 0x00, 0x04, 0x00, 0x08, 0x00,
  0x0c, 0x00, 0x10, 0x00, 0x0c, 0x00, 0x00, 0x00, 0xf0, 0x00, 0x00, 0x00,
  0xe4, 0x00, 0x00, 0x00, 0xd8, 0x00, 0x00, 0x00, 0x04, 0x00, 0x00, 0x00,
  0x03, 0x00, 0x00, 0x00, 0x90, 0x00, 0x00, 0x00, 0x48, 0x00, 0x00, 0x00,
  0x04, 0x00, 0x00, 0x00, 0xce, 0xff, 0xff, 0xff, 0x00, 0x00, 0x00, 0x08,
  0x18, 0x00, 0x00, 0x00, 0x0c, 0x00, 0x00, 0x00, 0x04, 0x00, 0x00, 0x00,
  0x1c, 0xfc, 0xff, 0xff, 0x01, 0x00, 0x00, 0x00, 0x00, 0x00, 0x00, 0x00,
  0x03, 0x00, 0x00, 0x00, 0x07, 0x00, 0x00, 0x00, 0x08, 0x00, 0x00, 0x00,
  0x09, 0x00, 0x00, 0x00, 0x00, 0x00, 0x0e, 0x00, 0x14, 0x00, 0x00, 0x00,
  0x08, 0x00, 0x0c, 0x00, 0x07, 0x00, 0x10, 0x00, 0x0e, 0x00, 0x00, 0x00,
  0x00, 0x00, 0x00, 0x08, 0x1c, 0x00, 0x00, 0x00, 0x10, 0x00, 0x00, 0x00,
  0x04, 0x00, 0x00, 0x00, 0xba, 0xff, 0xff, 0xff, 0x00, 0x00, 0x00, 0x01,
  0x01, 0x00, 0x00, 0x00, 0x07, 0x00, 0x00, 0x00, 0x03, 0x00, 0x00, 0x00,
  0x04, 0x00, 0x00, 0x00, 0x05, 0x00, 0x00, 0x00, 0x06, 0x00, 0x00, 0x00,
  0x00, 0x00, 0x0e, 0x00, 0x16, 0x00, 0x00, 0x00, 0x08, 0x00, 0x0c, 0x00,
  0x07, 0x00, 0x10, 0x00, 0x0e, 0x00, 0x00, 0x00, 0x00, 0x00, 0x00, 0x08,
  0x24, 0x00, 0x00, 0x00, 0x18, 0x00, 0x00, 0x00, 0x0c, 0x00, 0x00, 0x00,
  0x00, 0x00, 0x06, 0x00, 0x08, 0x00, 0x07, 0x00, 0x06, 0x00, 0x00, 0x00,
  0x00, 0x00, 0x00, 0x01, 0x01, 0x00, 0x00, 0x00, 0x04, 0x00, 0x00, 0x00,
  0x03, 0x00, 0x00, 0x00, 0x01, 0x00, 0x00, 0x00, 0x02, 0x00, 0x00, 0x00,
  0x03, 0x00, 0x00, 0x00, 0x01, 0x00, 0x00, 0x00, 0x00, 0x00, 0x00, 0x00,
  0x01, 0x00, 0x00, 0x00, 0x01, 0x00, 0x00, 0x00, 0x0a, 0x00, 0x00, 0x00,
  0x10, 0x03, 0x00, 0x00, 0xa4, 0x02, 0x00, 0x00, 0x40, 0x02, 0x00, 0x00,
  0xf4, 0x01, 0x00, 0x00, 0xac, 0x01, 0x00, 0x00, 0x48, 0x01, 0x00, 0x00,
  0xfc, 0x00, 0x00, 0x00, 0xb4, 0x00, 0x00, 0x00, 0x50, 0x00, 0x00, 0x00,
  0x04, 0x00, 0x00, 0x00, 0x26, 0xfd, 0xff, 0xff, 0x3c, 0x00, 0x00, 0x00,
  0x01, 0x00, 0x00, 0x00, 0x0c, 0x00, 0x00, 0x00, 0x04, 0x00, 0x00, 0x00,
  0x18, 0xfd, 0xff, 0xff, 0x20, 0x00, 0x00, 0x00, 0x73, 0x65, 0x71, 0x75,
  0x65, 0x6e, 0x74, 0x69, 0x61, 0x6c, 0x5f, 0x31, 0x2f, 0x64, 0x65, 0x6e,
  0x73, 0x65, 0x5f, 0x34, 0x2f, 0x4d, 0x61, 0x74, 0x4d, 0x75, 0x6c, 0x5f,
  0x62, 0x69, 0x61, 0x73, 0x00, 0x00, 0x00, 0x00, 0x01, 0x00, 0x00, 0x00,
  0x01, 0x00, 0x00, 0x00, 0x6e, 0xfd, 0xff, 0xff, 0x50, 0x00, 0x00, 0x00,
  0x0a, 0x00, 0x00, 0x00, 0x0c, 0x00, 0x00, 0x00, 0x04, 0x00, 0x00, 0x00,
  0x60, 0xfd, 0xff, 0xff, 0x34, 0x00, 0x00, 0x00, 0x73, 0x65, 0x71, 0x75,
  0x65, 0x6e, 0x74, 0x69, 0x61, 0x6c, 0x5f, 0x31, 0x2f, 0x64, 0x65, 0x6e,
  0x73, 0x65, 0x5f, 0x34, 0x2f, 0x4d, 0x61, 0x74, 0x4d, 0x75, 0x6c, 0x2f,
  0x52, 0x65, 0x61, 0x64, 0x56, 0x61, 0x72, 0x69, 0x61, 0x62, 0x6c, 0x65,
  0x4f, 0x70, 0x2f, 0x74, 0x72, 0x61, 0x6e, 0x73, 0x70, 0x6f, 0x73, 0x65,
  0x00, 0x00, 0x00, 0x00, 0x02, 0x00, 0x00, 0x00, 0x01, 0x00, 0x00, 0x00,
  0x10, 0x00, 0x00, 0x00, 0xce, 0xfd, 0xff, 0xff, 0x34, 0x00, 0x00, 0x00,
  0x04, 0x00, 0x00, 0x00, 0x0c, 0x00, 0x00, 0x00, 0x04, 0x00, 0x00, 0x00,
  0xc0, 0xfd, 0xff, 0xff, 0x19, 0x00, 0x00, 0x00, 0x73, 0x65, 0x71, 0x75,
  0x65, 0x6e, 0x74, 0x69, 0x61, 0x6c, 0x5f, 0x31, 0x2f, 0x64, 0x65, 0x6e,
  0x73, 0x65, 0x5f, 0x33, 0x2f, 0x52, 0x65, 0x6c, 0x75, 0x00, 0x00, 0x00,
  0x02, 0x00, 0x00, 0x00, 0x01, 0x00, 0x00, 0x00, 0x10, 0x00, 0x00, 0x00,
  0x12, 0xfe, 0xff, 0xff, 0x3c, 0x00, 0x00, 0x00, 0x09, 0x00, 0x00, 0x00,
  0x0c, 0x00, 0x00, 0x00, 0x04, 0x00, 0x00, 0x00, 0x04, 0xfe, 0xff, 0xff,
  0x20, 0x00, 0x00, 0x00, 0x73, 0x65, 0x71, 0x75, 0x65, 0x6e, 0x74, 0x69,
  0x61, 0x6c, 0x5f, 0x31, 0x2f, 0x64, 0x65, 0x6e, 0x73, 0x65, 0x5f, 0x33,
  0x2f, 0x4d, 0x61, 0x74, 0x4d, 0x75, 0x6c, 0x5f, 0x62, 0x69, 0x61, 0x73,
  0x00, 0x00, 0x00, 0x00, 0x01, 0x00, 0x00, 0x00, 0x10, 0x00, 0x00, 0x00,
  0x5a, 0xfe, 0xff, 0xff, 0x50, 0x00, 0x00, 0x00, 0x08, 0x00, 0x00, 0x00,
  0x0c, 0x00, 0x00, 0x00, 0x04, 0x00, 0x00, 0x00, 0x4c, 0xfe, 0xff, 0xff,
  0x34, 0x00, 0x00, 0x00, 0x73, 0x65, 0x71, 0x75, 0x65, 0x6e, 0x74, 0x69,
  0x61, 0x6c, 0x5f, 0x31, 0x2f, 0x64, 0x65, 0x6e, 0x73, 0x65, 0x5f, 0x33,
  0x2f, 0x4d, 0x61, 0x74, 0x4d, 0x75, 0x6c, 0x2f, 0x52, 0x65, 0x61, 0x64,
  0x56, 0x61, 0x72, 0x69, 0x61, 0x62, 0x6c, 0x65, 0x4f, 0x70, 0x2f, 0x74,
  0x72, 0x61, 0x6e, 0x73, 0x70, 0x6f, 0x73, 0x65, 0x00, 0x00, 0x00, 0x00,
  0x02, 0x00, 0x00, 0x00, 0x10, 0x00, 0x00, 0x00, 0x10, 0x00, 0x00, 0x00,
  0xba, 0xfe, 0xff, 0xff, 0x34, 0x00, 0x00, 0x00, 0x03, 0x00, 0x00, 0x00,
  0x0c, 0x00, 0x00, 0x00, 0x04, 0x00, 0x00, 0x00, 0xac, 0xfe, 0xff, 0xff,
  0x19, 0x00, 0x00, 0x00, 0x73, 0x65, 0x71, 0x75, 0x65, 0x6e, 0x74, 0x69,
  0x61, 0x6c, 0x5f, 0x31, 0x2f, 0x64, 0x65, 0x6e, 0x73, 0x65, 0x5f, 0x32,
  0x2f, 0x52, 0x65, 0x6c, 0x75, 0x00, 0x00, 0x00, 0x02, 0x00, 0x00, 0x00,
  0x01, 0x00, 0x00, 0x00, 0x10, 0x00, 0x00, 0x00, 0xfe, 0xfe, 0xff, 0xff,
  0x3c, 0x00, 0x00, 0x00, 0x07, 0x00, 0x00, 0x00, 0x0c, 0x00, 0x00, 0x00,
  0x04, 0x00, 0x00, 0x00, 0xf0, 0xfe, 0xff, 0xff, 0x20, 0x00, 0x00, 0x00,
  0x73, 0x65, 0x71, 0x75, 0x65, 0x6e, 0x74, 0x69, 0x61, 0x6c, 0x5f, 0x31,
  0x2f, 0x64, 0x65, 0x6e, 0x73, 0x65, 0x5f, 0x32, 0x2f, 0x4d, 0x61, 0x74,
  0x4d, 0x75, 0x6c, 0x5f, 0x62, 0x69, 0x61, 0x73, 0x00, 0x00, 0x00, 0x00,
  0x01, 0x00, 0x00, 0x00, 0x10, 0x00, 0x00, 0x00, 0x46, 0xff, 0xff, 0xff,
  0x50, 0x00, 0x00, 0x00, 0x06, 0x00, 0x00, 0x00, 0x0c, 0x00, 0x00, 0x00,
  0x04, 0x00, 0x00, 0x00, 0x38, 0xff, 0xff, 0xff, 0x34, 0x00, 0x00, 0x00,
  0x73, 0x65, 0x71, 0x75, 0x65, 0x6e, 0x74, 0x69, 0x61, 0x6c, 0x5f, 0x31,
  0x2f, 0x64, 0x65, 0x6e, 0x73, 0x65, 0x5f, 0x32, 0x2f, 0x4d, 0x61, 0x74,
  0x4d, 0x75, 0x6c, 0x2f, 0x52, 0x65, 0x61, 0x64, 0x56, 0x61, 0x72, 0x69,
  0x61, 0x62, 0x6c, 0x65, 0x4f, 0x70, 0x2f, 0x74, 0x72, 0x61, 0x6e, 0x73,
  0x70, 0x6f, 0x73, 0x65, 0x00, 0x00, 0x00, 0x00, 0x02, 0x00, 0x00, 0x00,
  0x10, 0x00, 0x00, 0x00, 0x01, 0x00, 0x00, 0x00, 0xa6, 0xff, 0xff, 0xff,
  0x48, 0x00, 0x00, 0x00, 0x02, 0x00, 0x00, 0x00, 0x2c, 0x00, 0x00, 0x00,
  0x0c, 0x00, 0x00, 0x00, 0x08, 0x00, 0x0c, 0x00, 0x04, 0x00, 0x08, 0x00,
  0x08, 0x00, 0x00, 0x00, 0x10, 0x00, 0x00, 0x00, 0x04, 0x00, 0x00, 0x00,
  0x01, 0x00, 0x00, 0x00, 0x00, 0x00, 0x7f, 0x43, 0x01, 0x00, 0x00, 0x00,
  0x00, 0x00, 0x00, 0x00, 0x0d, 0x00, 0x00, 0x00, 0x64, 0x65, 0x6e, 0x73,
  0x65, 0x5f, 0x32, 0x5f, 0x69, 0x6e, 0x70, 0x75, 0x74, 0x00, 0x00, 0x00,
  0x02, 0x00, 0x00, 0x00, 0x01, 0x00, 0x00, 0x00, 0x01, 0x00, 0x00, 0x00,
  0x00, 0x00, 0x0e, 0x00, 0x14, 0x00, 0x04, 0x00, 0x00, 0x00, 0x08, 0x00,
  0x0c, 0x00, 0x10, 0x00, 0x0e, 0x00, 0x00, 0x00, 0x28, 0x00, 0x00, 0x00,
  0x05, 0x00, 0x00, 0x00, 0x10, 0x00, 0x00, 0x00, 0x08, 0x00, 0x00, 0x00,
  0x04, 0x00, 0x04, 0x00, 0x04, 0x00, 0x00, 0x00, 0x08, 0x00, 0x00, 0x00,
  0x49, 0x64, 0x65, 0x6e, 0x74, 0x69, 0x74, 0x79, 0x00, 0x00, 0x00, 0x00,
  0x02, 0x00, 0x00, 0x00, 0x01, 0x00, 0x00, 0x00, 0x01, 0x00, 0x00, 0x00,
  0x01, 0x00, 0x00, 0x00, 0x10, 0x00, 0x00, 0x00, 0x00, 0x00, 0x0a, 0x00,
  0x0c, 0x00, 0x07, 0x00, 0x00, 0x00, 0x08, 0x00, 0x0a, 0x00, 0x00, 0x00,
  0x00, 0x00, 0x00, 0x09, 0x03, 0x00, 0x00, 0x00
};
unsigned int sine_model_quantized_tflite_len = 2720;